# HERCOSSNUX NPU HXQ8 weights v1
# M1 5064654 M2 5353067 M3 4101566 SHIFT 31
@W1 72
58
dd
35
ee
c8
9c
06
d9
c9
66
31
a5
f3
00
00
91
c1
3e
c0
00
d7
21
fa
e1
e5
0f
cb
3f
2d
cd
1c
46
ff
50
36
18
09
e7
e0
e1
cb
1b
02
12
c6
4d
5c
6e
7e
03
3f
99
f0
0c
f9
65
44
39
59
5a
cd
20
ff
81
cd
ef
11
1c
ea
e7
d7
ec
@B1 8
00000975
00000140
fffffba7
ffffecfc
fffffe4f
ffffe622
ffffe51b
fffffdfa
@W2 1152
ff
0c
17
06
06
eb
23
fb
21
1a
e8
17
0e
bf
db
3a
f4
e9
0c
00
20
e9
0b
e6
f7
08
f6
de
f9
11
f1
da
18
ee
d4
28
e8
16
e9
03
13
12
e5
12
fb
e1
df
f3
0f
f5
ed
f7
e4
de
ed
06
31
15
e8
11
ff
00
ff
f3
ea
18
ec
e3
f8
11
01
1c
ff
f4
1e
13
d7
da
03
eb
e8
ec
d7
ed
ed
fa
09
e8
23
21
1c
0e
e2
fb
0e
e2
e7
02
f3
1a
01
f6
ec
27
2b
d5
ec
fe
06
01
0a
15
f5
ea
dc
04
08
d1
de
cb
7f
4c
2e
fd
f6
28
ea
ea
c1
4b
24
28
ae
e6
12
de
ef
fe
ed
22
04
f2
23
fa
ef
11
e1
f9
eb
13
14
06
ef
18
11
f1
ef
eb
fe
4c
31
fd
05
04
12
e9
00
f0
21
fa
fa
03
ff
f9
26
eb
f0
f8
23
12
03
fe
f5
02
ee
12
ff
19
05
09
1a
1b
24
00
da
fd
eb
de
fe
f8
0c
18
fb
e7
03
18
e7
10
ff
0a
0c
ee
ff
f3
06
ff
f9
e6
f5
e6
08
01
f1
2f
fc
eb
de
f6
d2
11
13
36
32
06
17
f9
ff
fd
dc
e9
cc
06
03
17
3a
0b
1e
fe
db
eb
d6
d0
13
f1
0a
f7
e4
02
df
1d
07
1e
fc
07
3c
37
3d
09
f1
d9
ff
04
fb
0b
31
25
00
e2
ce
e7
e8
09
01
09
09
2b
0d
e4
06
06
23
fb
fc
e4
f6
10
fc
10
f2
f1
07
e1
fb
02
10
0d
e6
00
f7
e4
f6
dd
0e
ee
01
f5
20
fb
fa
e4
de
02
1e
20
02
d9
fe
f5
f7
ed
15
f0
05
d4
f9
e3
e8
04
28
f6
e6
eb
f2
06
13
ee
02
ea
0a
27
39
fe
1e
0e
ed
07
f9
f8
ff
db
e7
d1
0c
21
f7
1d
0f
d7
04
05
c8
d3
f8
c9
f7
eb
d5
f6
03
12
e0
03
00
f4
0b
04
1d
f4
14
07
dd
e2
04
f8
15
1e
04
00
08
d7
eb
0f
f8
f9
17
ff
30
05
34
3d
12
02
fd
ee
2a
0d
12
d8
15
14
ef
f6
f9
0a
01
11
07
e8
f9
01
09
03
03
f6
e2
fd
e8
02
01
f2
f0
e8
f1
dc
dd
ef
e2
09
07
f6
ed
ed
19
f8
28
dc
ea
de
09
14
33
06
1f
1a
ef
1f
25
1e
db
f1
0e
0a
f4
f1
fa
13
f5
21
e5
d8
f8
07
da
2a
1c
ef
17
0e
c0
11
17
0c
24
2d
fc
2a
de
07
03
e6
21
11
ed
fb
12
06
2d
f5
07
0e
12
f1
0d
ff
f6
0a
f7
e2
f2
1b
ff
13
e3
01
ef
20
0a
bc
f0
1f
0f
e9
f4
0b
00
f2
04
ed
ff
06
eb
22
04
ef
f1
18
0c
0e
19
fa
e3
fb
e8
f3
f7
e0
fa
13
d7
d5
1b
13
d0
0f
ef
cc
c7
08
07
1e
fb
e8
24
f6
e6
fb
e5
f5
07
fb
12
1a
fa
30
ff
eb
f1
30
17
39
24
f5
05
07
e5
17
00
12
06
f5
0c
25
f9
fc
f0
0b
ec
13
f0
22
1b
34
0f
07
f2
f8
ec
fa
13
eb
ed
c6
eb
04
31
0c
07
04
0e
e1
bc
f6
14
00
f4
dd
08
0b
d9
fa
13
16
07
1b
df
f8
03
fe
07
f7
e9
09
24
fa
da
f1
02
01
1f
17
ed
0e
ff
1e
ed
06
02
06
12
20
25
46
07
25
d9
f0
eb
e4
ee
f1
df
02
16
cc
d7
dc
1f
17
0b
07
f4
f2
eb
0f
06
0c
ed
0d
2d
05
f0
eb
f2
05
35
f0
0b
07
d9
0f
ef
fe
f3
f2
f1
00
f0
23
fd
e2
2c
10
f5
ed
09
11
06
1d
e1
16
ea
e9
f2
e9
25
f2
e8
1a
02
f2
00
04
ee
14
e0
f8
03
4b
fc
ed
26
f3
05
2c
2d
f3
08
fc
04
42
e2
0f
04
0a
31
fb
d8
e4
23
e6
bd
2d
f3
08
19
e0
d1
2d
e8
d7
2c
25
01
fe
1d
ee
ee
00
0a
e7
0d
2d
ea
e4
f6
13
1f
13
e5
2a
09
f0
26
13
08
0f
15
ff
28
27
07
07
01
22
07
1b
e8
01
26
dc
10
e9
d7
cf
06
f7
f6
e4
fc
10
f8
fd
15
18
10
1d
0e
d3
ea
60
e2
f6
1c
e1
e3
dc
d1
18
44
f8
e5
1d
ec
00
f1
1c
0c
0f
ee
e5
fc
fc
14
d9
04
26
08
f1
fc
fb
0c
e2
08
03
fe
0a
0d
15
01
03
06
e1
10
0e
d4
03
0b
0c
f7
ea
0b
ee
07
ea
0b
f6
c9
36
fd
f3
04
e7
13
12
f7
14
ef
04
15
f4
d5
07
f2
d6
15
20
f6
fb
0f
f1
e6
ec
ef
c3
23
dd
f8
ef
1a
f8
11
13
15
e9
1b
00
2e
06
f6
08
20
1f
00
fa
d7
e2
29
fa
e8
f4
09
f1
0d
23
ff
14
04
fb
04
e2
f0
e6
f0
01
e4
ea
11
0b
e9
1f
1a
0d
ed
2d
08
06
07
2a
0c
ea
d1
fd
e8
c1
20
ec
14
f9
0a
dc
db
f2
07
f7
e9
f1
0c
ec
08
01
f9
f5
1c
17
12
fc
33
19
d5
08
02
03
1d
08
dd
23
02
f8
f2
e2
d1
f0
f0
f8
f8
f6
fa
f3
09
f0
0a
e6
18
0d
1a
00
00
ee
ff
02
fd
fb
e8
f4
0d
ec
03
e7
14
01
06
eb
f2
09
fb
de
01
06
f6
ee
0e
38
f2
08
04
ed
f7
28
e5
04
09
01
ed
06
f8
2d
23
e8
38
2d
1a
24
13
fc
c5
f1
d5
2a
f9
fb
0c
e4
f4
26
1e
28
3b
1c
e8
db
f4
03
1e
fe
f3
10
f0
dc
ff
15
e2
05
1b
fb
0c
c8
ec
0a
08
16
f3
05
de
ec
0c
08
1c
1c
c6
f9
21
0a
19
d8
fe
0b
07
d9
fb
0f
2f
e2
da
04
06
08
04
f8
f0
0d
00
f9
@B2 16
ffffff3b
fffffd75
fffffe43
fffffd5e
000000e1
ffffff3a
fffffeab
00000060
fffffeda
fffffffb
ffffff40
ffffffce
00000032
00000266
00000047
ffffff96
@W3 2560
07
f7
1d
d3
1b
10
07
f7
0c
03
ef
07
03
fc
e2
fc
f3
f7
1f
02
f5
b9
db
3e
47
dc
90
ed
e9
da
de
21
ff
12
ff
09
ff
f4
ed
09
f4
09
0c
f8
06
0c
07
f9
fe
f5
fd
d6
d1
d3
d9
20
42
2f
0b
1e
f8
0a
15
0e
fc
09
08
fe
0a
22
07
08
0b
f1
f8
02
e9
00
f6
f7
18
f0
0a
ed
40
04
19
4e
13
db
ea
25
17
f7
f0
15
0e
ef
fc
31
39
36
2c
20
2d
45
01
21
f8
ff
05
f5
04
f0
0b
ff
f3
06
fa
f2
f0
f5
e5
02
ff
de
21
e8
18
21
23
02
14
ef
ea
ed
ec
15
de
c8
13
f4
ff
16
02
0d
eb
20
ec
f1
18
09
f4
e2
f9
f8
f7
f9
0e
0b
fd
02
1c
f5
34
e0
21
2a
34
2d
1e
fe
f5
0d
16
0a
f5
f9
fb
dc
c7
db
28
16
d9
e6
0b
e1
27
ed
d1
05
fc
09
11
0e
f4
07
f4
ed
19
f9
01
d6
17
07
00
0a
e8
f6
eb
11
09
ff
fa
0b
ec
f7
f7
f8
f7
f7
f1
f8
0a
f3
02
0d
02
02
fa
03
0a
0a
08
eb
ea
d4
00
0a
f6
00
06
01
e3
d7
e3
d4
fb
0b
05
01
2a
09
1d
f0
e8
fd
03
11
09
1c
15
0f
1c
06
13
f3
e2
e9
f0
fb
fc
fa
b3
cf
f7
37
16
f4
e0
f2
ed
f1
ed
08
5e
22
f4
11
ed
e6
f9
2b
04
cc
d9
01
1c
ec
fa
17
23
18
ef
be
b7
e2
f9
fb
e0
f3
a6
bd
df
c7
04
17
16
12
df
06
10
14
ff
0d
02
f7
e7
1b
22
fe
16
f9
fb
08
f6
f1
d9
e9
fb
18
0b
ee
13
21
11
e2
f6
16
04
1e
e9
04
fd
ef
da
f2
03
e4
e3
13
3b
fd
ef
09
4e
0e
02
19
d9
04
08
29
de
f4
02
11
ee
f3
00
11
10
08
f0
20
d7
d1
d8
f7
01
ed
f1
04
fd
f5
f9
fb
03
f8
ee
fc
08
01
e8
21
f0
f3
e2
f3
f3
09
05
31
f6
f3
00
23
2e
0b
e6
0c
0f
0e
e4
35
2b
1f
e2
0a
43
47
f4
dc
1a
30
14
1a
1a
fd
d5
06
f8
10
f5
37
1f
05
0d
0c
08
18
00
1f
f1
ed
0e
23
19
f5
12
f5
0b
1d
f2
fc
f9
f8
03
00
1d
08
f6
e8
29
1d
fa
fb
21
0d
01
09
14
14
05
0f
06
ec
d5
f8
00
10
05
2f
f3
fd
f0
14
f9
f0
06
dc
e4
e5
e4
d6
d2
f4
ee
00
fc
f7
14
df
04
09
06
00
ff
f4
d9
cf
e4
f6
f8
f1
0f
0c
fd
f5
10
fb
e8
b4
c9
fa
d8
ad
d8
e5
4a
21
50
5c
00
06
3c
f1
02
f1
0a
09
f1
f0
09
e0
fd
fb
00
ff
14
0f
e5
d0
1c
ef
f4
10
de
d5
f0
d8
24
19
12
f4
ff
04
fb
f2
0b
00
05
ef
1b
1c
05
fc
fe
06
07
04
df
f9
dc
f6
e4
eb
de
d7
dc
cc
b7
ed
18
31
1f
30
ff
e2
e9
09
f8
c8
e4
14
0e
f3
e7
da
fc
03
2e
fc
05
09
11
25
01
01
13
22
df
16
13
fd
01
f9
12
03
f1
0b
06
1b
02
10
02
0a
fe
33
50
13
0f
dc
0e
18
1c
06
10
06
1f
12
fc
03
f4
f6
e6
15
27
f2
e9
0e
17
ec
1c
0e
f6
02
ee
00
f7
02
04
e1
f1
fa
35
16
fd
fe
00
fc
1f
e0
1b
fc
d6
ed
f2
0e
0b
f5
05
0c
0e
07
0e
0a
06
15
dc
e7
0c
f9
0c
0e
fb
f8
f3
1b
0b
fe
fb
f4
ff
08
f4
fe
11
1c
f9
08
f6
fa
01
0b
00
03
0d
0e
f6
12
15
03
01
02
da
03
2d
ef
f3
09
30
29
0f
e1
29
fd
16
2c
f8
fc
0f
16
f1
e1
e6
f5
ec
f2
00
1b
fb
00
01
f4
e5
25
23
00
04
ef
ef
0f
49
4d
20
23
b6
b8
cf
f0
ec
08
17
11
01
13
f8
fd
f5
e5
02
01
fe
0a
03
f2
02
e6
e3
1e
0c
eb
e3
06
3b
1d
2d
28
cf
ed
0e
0c
e4
bf
c8
2c
ff
0f
01
1f
da
de
04
11
dc
07
f5
06
04
1b
1d
f3
1e
f9
0f
15
15
13
08
e2
e4
fc
e2
e3
ca
bc
ff
f1
f0
df
0c
04
18
22
f7
f6
e6
e3
ef
e0
10
0e
e6
01
28
11
01
03
11
eb
04
04
fc
01
11
e9
f3
28
02
17
06
00
1a
f3
09
d9
20
04
00
ca
c7
d0
19
12
05
ec
13
1e
13
fc
01
13
f6
05
f9
17
11
05
f4
24
16
e8
ff
f0
f6
f2
00
10
eb
e1
d1
d4
cc
e3
24
f8
15
14
0d
1f
16
08
1e
1b
05
f5
17
00
16
d8
e5
37
34
d6
11
fb
e8
fa
fb
f7
d5
05
18
03
ee
0d
07
fb
f5
ff
1a
1c
e9
08
12
f0
ee
0d
fb
fc
ec
f8
26
f0
11
15
e4
f5
dc
15
10
fc
e8
fe
d6
f7
ff
1d
36
09
fb
ff
fc
11
14
f6
00
ff
d7
22
09
17
0a
12
09
f9
03
e3
ec
fa
01
ff
e0
fd
ed
f1
ea
fd
e6
17
f9
01
eb
0b
11
35
2a
02
ff
da
b2
ca
f7
31
01
e9
1b
5c
65
06
ae
a8
96
e0
f9
ea
0a
fe
f6
ee
1c
13
fe
f0
f7
12
f8
ed
07
1f
d7
94
c1
d7
e7
fd
09
fb
39
41
40
1b
ff
e0
0b
0b
07
23
1d
06
25
0d
f5
f2
f8
13
e8
00
08
e9
f2
fc
ef
06
e6
05
fc
0a
0d
01
10
3a
06
14
09
f5
f8
0a
ec
fb
fe
f7
14
25
37
06
e6
2a
2f
1b
f3
ae
e2
07
fa
08
11
14
eb
ea
d4
e7
00
db
04
05
03
09
04
f8
d7
fe
d2
ef
34
18
2d
05
fa
12
f9
28
fd
fa
d8
d4
e7
fc
09
fa
e6
ea
00
03
10
fd
e6
f6
ea
f2
04
12
f8
e0
10
15
ec
d6
10
18
01
e9
21
0c
fd
d2
fb
28
d7
ed
15
f9
ee
26
01
eb
22
e9
fc
ec
16
18
24
06
0c
07
11
00
0d
fc
23
10
ff
f1
e2
04
f3
17
12
dc
10
fc
ef
0e
10
fb
17
04
01
f0
0e
e2
f6
0d
02
f0
eb
ff
00
f3
03
00
ed
fd
0a
ff
0f
01
fb
07
f3
e8
fa
01
06
12
21
18
ef
f2
09
e8
df
17
09
f2
0c
05
1c
01
2e
23
2c
f9
0d
eb
14
d6
e5
ee
29
f3
27
e1
30
04
ee
4d
25
7f
3c
13
eb
be
cb
f9
17
dd
01
18
14
d2
c2
ff
f0
eb
e8
04
04
1b
f1
08
0f
f5
0c
f8
f8
12
23
29
5e
65
f7
e6
fd
c0
bb
10
e7
0a
f7
28
06
00
02
fb
14
f3
0b
f7
08
12
fa
f5
ff
31
20
12
09
13
2e
2d
1a
22
1c
08
0a
d6
e7
da
e2
f7
05
13
21
1e
f8
fe
0d
f6
df
d2
22
f3
1d
08
03
11
f8
08
f1
fa
fb
11
ff
0b
f6
01
21
0c
0a
f2
f9
02
02
f7
d7
fe
08
27
f3
cf
df
03
f8
d7
e1
f4
12
04
07
19
f0
ed
f8
f2
0d
02
fd
13
09
0c
f7
08
e9
f5
f8
fd
10
14
f8
c5
c5
e1
c9
1f
10
eb
e3
05
1b
fc
03
01
fb
c0
cc
14
0f
d8
c3
00
2e
f6
03
1f
23
f5
f0
eb
f0
f5
ed
02
0c
ee
e0
fe
fb
10
f2
f8
06
f4
e7
fa
f2
ef
f5
f3
e9
04
10
1f
fc
04
16
02
0a
15
fd
f8
19
f0
11
f6
13
f6
f6
f1
03
ed
05
0b
05
0a
06
18
d1
d7
e5
10
28
ee
d4
fa
31
2a
f3
e0
ee
f4
09
1e
fa
03
0a
27
10
1c
f8
0b
1c
16
0f
0b
fa
06
0a
01
ab
a8
af
f4
00
09
24
e2
10
3e
3f
3b
00
23
2a
12
f2
fb
15
d1
e3
fa
dd
e0
0c
2c
2d
ff
ed
05
fb
17
a9
d0
18
18
eb
12
ec
d4
27
6f
33
18
0d
30
0b
21
1a
00
12
f4
f7
fb
00
fc
f9
e9
00
04
f1
0b
e8
08
dd
c4
0b
0a
e8
dd
be
ed
1b
3d
12
fb
f5
08
2b
0a
d9
b8
c8
c2
0a
26
0a
d3
27
0a
08
15
11
27
f9
ec
fc
03
fd
1b
ec
ee
f4
1c
fa
f2
06
02
23
ec
dd
02
1c
f1
fb
e4
16
32
22
01
08
d5
fb
32
e2
26
21
12
ef
0c
fe
e7
ff
f3
fc
fa
ec
03
01
0c
1f
26
da
fb
06
c1
b4
b6
24
37
2b
c0
fe
14
0e
0d
16
1d
d9
13
03
16
30
00
a6
d5
0a
fb
11
e5
de
03
06
08
0a
f6
00
fd
e8
cc
fd
14
1c
17
fc
e4
f0
26
ef
01
ee
f0
15
18
e4
e1
fb
1f
12
07
ed
08
06
04
0a
f6
da
fe
d9
12
f4
f3
ff
f8
00
1f
f4
09
00
e9
08
f9
1c
34
13
3a
40
02
f9
e8
0b
16
1f
fc
f8
0b
03
0b
0c
14
1d
01
f8
e5
dc
ed
fa
f1
e5
f7
e8
f5
1f
01
f4
f4
29
51
47
39
e7
c7
fd
f4
fe
e8
cb
f3
e5
da
b4
ce
14
f8
fe
2b
03
e4
f5
ef
e8
05
1d
d1
f4
40
10
b3
27
0f
2f
1b
ec
ec
2a
30
f8
0d
d6
f5
de
df
ad
d0
17
fd
04
f2
07
05
1c
00
fe
08
0d
01
03
f9
09
03
0d
22
25
19
e9
06
00
0a
fa
05
dc
03
12
eb
de
f9
0c
fb
1a
2e
ff
e9
e8
0f
f5
03
d6
cc
00
29
ed
ca
11
07
f5
15
02
0e
fb
0c
08
cb
f8
e3
0f
15
ec
09
f9
f0
eb
2a
fd
02
0c
f2
15
28
12
e0
11
0c
fe
e5
06
08
16
ff
13
fe
28
d9
1e
ec
06
fc
f2
f1
f8
0d
17
13
0f
30
fc
fb
d9
fb
fa
11
05
d7
fa
31
08
a7
2e
e8
ff
f7
1a
2e
07
0f
fb
ef
07
e8
ef
fa
e9
10
ef
ce
ff
fd
fd
f7
0e
e6
10
f9
0e
e7
20
12
fc
d5
04
2a
02
1a
01
22
f3
ec
00
10
fb
fa
e1
0a
0c
07
24
fb
03
04
f0
ff
07
ef
1a
e7
1c
09
11
0d
10
f6
f0
ff
f1
16
14
3d
62
2b
f5
e7
f0
f3
17
0f
ea
e9
f2
04
d4
dd
ff
06
fe
0e
f1
f9
f9
ff
23
fc
2e
09
e5
fd
06
ec
0a
36
1c
0e
0b
35
52
19
ec
07
24
15
0e
27
22
0f
2a
34
12
07
1e
3a
21
01
0a
e2
de
11
29
1b
c5
c0
0f
ea
33
62
d8
17
1e
e7
f7
01
f5
ff
03
fb
05
04
22
06
0f
0c
e3
fa
e5
e7
0b
f4
08
fc
f7
11
2a
0b
fb
f8
e3
d6
df
1e
23
ee
17
08
1b
e4
06
c5
fd
17
fe
f8
d3
fe
05
e9
ea
e6
13
12
ee
03
fc
03
0a
e8
1b
14
19
ea
f0
f0
01
0e
02
00
0e
17
12
08
ef
ff
27
f4
22
1b
26
1f
1a
04
f4
fc
12
01
32
fd
19
13
f7
fe
ef
02
0b
10
0e
fb
e1
e2
04
f1
00
ec
05
1d
02
26
0f
bd
eb
f8
d1
f4
17
ff
fc
f7
f3
ec
f9
f6
41
df
b3
e7
f4
ce
bb
15
01
fd
ea
08
02
ff
f7
2d
07
fb
cd
e3
f0
f2
02
fd
13
16
e5
ea
07
fc
fb
fd
11
f3
d5
f4
f5
0a
12
e1
f4
de
00
ef
f8
09
ec
d7
02
f8
e4
0a
fc
14
fd
e1
e2
11
e9
f6
11
fc
f8
f8
06
37
59
33
08
fd
e9
18
0e
02
ea
0d
22
02
02
f7
1b
ee
fa
e8
21
1c
05
ed
fc
ed
17
f0
fe
1b
20
06
1e
13
1c
2e
c6
02
4f
15
f2
00
ab
d6
fa
0d
14
04
0f
36
08
dd
eb
cf
f6
15
f0
f5
21
f7
f8
0e
f1
fa
1c
fa
fe
06
10
f5
40
3d
ea
ea
e8
bb
16
07
fe
0b
11
e3
09
09
f5
01
14
0d
05
f3
02
0a
1c
1b
ef
fc
09
f4
25
0c
15
1f
27
25
fa
f3
dd
f1
09
0f
f7
fa
12
13
2d
26
d8
c4
ea
06
f5
cd
ca
c3
f1
04
ed
ea
fb
1d
fe
0b
07
02
f9
0d
09
02
fb
fb
00
1d
0f
f1
08
f1
f3
02
11
c8
0b
11
fa
2f
06
e6
05
f2
01
03
00
ff
ee
f6
14
1a
0e
08
bd
ec
14
06
02
0d
33
0b
10
25
33
2a
d0
a7
d7
e9
ec
cf
d5
cf
e6
e2
12
f1
2c
e1
db
ea
28
41
24
21
9c
e4
d9
0f
f1
ec
ff
02
17
f9
0a
0a
06
fd
fc
fd
fd
00
e9
02
0d
f4
0a
f3
03
12
f9
01
01
0a
09
00
ff
0b
0d
ed
ef
10
ee
f9
fd
09
09
ef
f1
f2
f2
fe
26
11
fa
08
19
29
03
e1
ff
fc
d7
f4
07
0d
54
28
f5
10
24
eb
@B3 10
ffffff46
0000011a
00000048
ffffffcf
000000be
ffffff2e
ffffffc9
0000009d
ffffff4e
ffffffea
